01
0c
1b
01
ff
fd
fb
f6
fd
c0
e6
1b
1e
dc
18
2b
0c
06
02
f8
22
22
f3
05
1c
0b
0c
fc
f9
fb
0d
09
08
f3
06
0e
f5
f0
e2
dc
d8
f8
e7
d7
09
22
10
f7
dc
00
bb
04
f1
1c
fd
f0
c8
30
d9
07
e1
3b
ce
0a
f3
e9
2c
f0
ec
fe
0a
cc
e6
21
eb
16
2d
f3
e8
02
da
04
eb
ea
2d
f5
f3
22
0f
dd
fb
1b
fb
1e
18
26
19
26
13
d4
1e
f3
f3
df
ee
d8
ee
00
00
f3
26
25
c5
f4
d6
ff
0d
0a
fe
1b
41
1f
f0
e3
0e
09
05
13
21
0a
0b
f9
2f
11
f9
07
11
f6
08
04
14
ee
25
4a
1e
23
15
da
02
08
f9
15
11
1a
09
f0
16
02
1d
16
c6
d0
04
10
eb
f4
f4
e8
fd
e3
f7
0e
08
00
0f
1a
1e
03
f9
eb
04
e9
f6
f4
29
ea
f7
ed
32
fb
0c
00
ea
b4
b2
f9
fe
ec
f4
e8
27
03
31
14
fe
0d
ec
e4
08
27
19
3a
26
f8
0e
23
fd
e5
02
fc
f8
f2
cf
ea
fd
db
e4
d1
da
28
dd
f9
f5
4b
13
24
f3
fc
f2
fc
e8
00
00
4d
0f
fa
08
25
0c
02
0b
d8
24
04
07
e2
0b
13
e3
dc
dc
12
d4
e8
05
f0
00
fa
ea
00
1d
05
da
08
0b
1c
f4
01
19
16
35
d7
fc
17
31
06
0d
f3
e9
c5
fa
24
d0
d3
f8
04
f5
e7
e7
10
10
fe
22
12
19
11
ef
e2
22
17
fe
fb
fb
31
25
28
e8
d7
fe
fa
f1
e2
f3
05
e6
e9
2c
22
dd
ee
0b
f7
f1
11
20
0e
22
2f
12
ee
f6
09
11
ed
13
b6
0d
0c
d2
01
ec
e0
ea
ec
fe
20
1b
fb
fc
0b
ea
e9
08
e5
18
f8
19
f1
25
31
0f
09
0a
07
15
05
2e
e6
f5
30
e6
d2
d5
bf
0e
fc
0b
06
18
0b
04
1f
fc
11
fb
22
1c
dc
ec
06
1e
0f
00
f4
e7
f2
18
10
23
21
00
f9
f1
03
00
20
05
e7
ef
fe
d4
00
02
f2
e0
ef
11
ef
d5
fe
dd
1c
d7
0f
2e
0a
e5
f7
fe
e2
f6
28
08
e9
14
0e
fd
d4
1d
27
06
0d
ff
ea
05
20
c3
d6
ee
de
01
0d
f4
f4
f3
08
21
10
e7
ec
df
0a
f5
35
f3
dd
08
0f
df
ed